const unsigned char model[] = {
  0x1c, 0x00, 0x00, 0x00, 0x54, 0x46, 0x4c, 0x33, 0x14, 0x00, 0x20, 0x00,
  0x04, 0x00, 0x08, 0x00, 0x0c, 0x00, 0x10, 0x00, 0x14, 0x00, 0x00, 0x00,
  0x18, 0x00, 0x1c, 0x00, 0x14, 0x00, 0x00, 0x00, 0x03, 0x00, 0x00, 0x00,
  0x18, 0x00, 0x00, 0x00, 0x20, 0x00, 0x00, 0x00, 0x40, 0x01, 0x00, 0x00,
  0x20, 0x00, 0x00, 0x00, 0xe8, 0x00, 0x00, 0x00, 0x5c, 0x00, 0x00, 0x00,
  0x02, 0x00, 0x00, 0x00, 0x18, 0x05, 0x00, 0x00, 0x10, 0x02, 0x00, 0x00,
  0x01, 0x00, 0x00, 0x00, 0x44, 0x01, 0x00, 0x00, 0x10, 0x00, 0x00, 0x00,
  0xac, 0x0d, 0x00, 0x00, 0xa8, 0x0d, 0x00, 0x00, 0xc8, 0x0c, 0x00, 0x00,
  0x64, 0x0c, 0x00, 0x00, 0x00, 0x0c, 0x00, 0x00, 0x7c, 0x0b, 0x00, 0x00,
  0xa4, 0x09, 0x00, 0x00, 0x4c, 0x07, 0x00, 0x00, 0x54, 0x06, 0x00, 0x00,
  0x84, 0x05, 0x00, 0x00, 0x84, 0x0d, 0x00, 0x00, 0x80, 0x0d, 0x00, 0x00,
  0x7c, 0x0d, 0x00, 0x00, 0x78, 0x0d, 0x00, 0x00, 0x74, 0x0d, 0x00, 0x00,
  0xc0, 0x00, 0x00, 0x00, 0x01, 0x00, 0x00, 0x00, 0x10, 0x00, 0x00, 0x00,
  0x00, 0x00, 0x0a, 0x00, 0x10, 0x00, 0x0c, 0x00, 0x08, 0x00, 0x04, 0x00,
  0x0a, 0x00, 0x00, 0x00, 0x0c, 0x00, 0x00, 0x00, 0x1c, 0x00, 0x00, 0x00,
  0x20, 0x00, 0x00, 0x00, 0x0f, 0x00, 0x00, 0x00, 0x73, 0x65, 0x72, 0x76,
  0x69, 0x6e, 0x67, 0x5f, 0x64, 0x65, 0x66, 0x61, 0x75, 0x6c, 0x74, 0x00,
  0x01, 0x00, 0x00, 0x00, 0x14, 0x00, 0x00, 0x00, 0x01, 0x00, 0x00, 0x00,
  0x28, 0x00, 0x00, 0x00, 0x08, 0x00, 0x0c, 0x00, 0x08, 0x00, 0x04, 0x00,
  0x08, 0x00, 0x00, 0x00, 0x0d, 0x00, 0x00, 0x00, 0x04, 0x00, 0x00, 0x00,
  0x08, 0x00, 0x00, 0x00, 0x64, 0x65, 0x6e, 0x73, 0x65, 0x5f, 0x33, 0x31,
  0x00, 0x00, 0x00, 0x00, 0xe2, 0xf3, 0xff, 0xff, 0x04, 0x00, 0x00, 0x00,
  0x0e, 0x00, 0x00, 0x00, 0x64, 0x65, 0x6e, 0x73, 0x65, 0x5f, 0x32, 0x38,
  0x5f, 0x69, 0x6e, 0x70, 0x75, 0x74, 0x00, 0x00, 0x01, 0x00, 0x00, 0x00,
  0x0c, 0x00, 0x00, 0x00, 0x08, 0x00, 0x0c, 0x00, 0x04, 0x00, 0x08, 0x00,
  0x08, 0x00, 0x00, 0x00, 0x08, 0x00, 0x00, 0x00, 0x0f, 0x00, 0x00, 0x00,
  0x13, 0x00, 0x00, 0x00, 0x6d, 0x69, 0x6e, 0x5f, 0x72, 0x75, 0x6e, 0x74,
  0x69, 0x6d, 0x65, 0x5f, 0x76, 0x65, 0x72, 0x73, 0x69, 0x6f, 0x6e, 0x00,
  0x32, 0xf4, 0xff, 0xff, 0x04, 0x00, 0x00, 0x00, 0x10, 0x00, 0x00, 0x00,
  0x31, 0x2e, 0x35, 0x2e, 0x30, 0x00, 0x00, 0x00, 0x00, 0x00, 0x00, 0x00,
  0x00, 0x00, 0x00, 0x00, 0x0f, 0x00, 0x00, 0x00, 0x4d, 0x4c, 0x49, 0x52,
  0x20, 0x43, 0x6f, 0x6e, 0x76, 0x65, 0x72, 0x74, 0x65, 0x64, 0x2e, 0x00,
  0x00, 0x00, 0x0e, 0x00, 0x18, 0x00, 0x04, 0x00, 0x08, 0x00, 0x0c, 0x00,
  0x10, 0x00, 0x14, 0x00, 0x0e, 0x00, 0x00, 0x00, 0x14, 0x00, 0x00, 0x00,
  0x4c, 0x00, 0x00, 0x00, 0x50, 0x00, 0x00, 0x00, 0x54, 0x00, 0x00, 0x00,
  0x68, 0x00, 0x00, 0x00, 0x0e, 0x00, 0x00, 0x00, 0xf4, 0x0b, 0x00, 0x00,
  0xa8, 0x0b, 0x00, 0x00, 0x30, 0x0b, 0x00, 0x00, 0xd8, 0x0a, 0x00, 0x00,
  0x74, 0x0a, 0x00, 0x00, 0xdc, 0x09, 0x00, 0x00, 0x04, 0x08, 0x00, 0x00,
  0xac, 0x05, 0x00, 0x00, 0xb4, 0x04, 0x00, 0x00, 0x98, 0x03, 0x00, 0x00,
  0x98, 0x02, 0x00, 0x00, 0xbc, 0x01, 0x00, 0x00, 0x0c, 0x01, 0x00, 0x00,
  0x84, 0x00, 0x00, 0x00, 0x01, 0x00, 0x00, 0x00, 0x00, 0x00, 0x00, 0x00,
  0x01, 0x00, 0x00, 0x00, 0x0d, 0x00, 0x00, 0x00, 0x05, 0x00, 0x00, 0x00,
  0x18, 0x03, 0x00, 0x00, 0x3c, 0x02, 0x00, 0x00, 0x60, 0x01, 0x00, 0x00,
  0xb4, 0x00, 0x00, 0x00, 0x1c, 0x00, 0x00, 0x00, 0x04, 0x00, 0x00, 0x00,
  0x6d, 0x61, 0x69, 0x6e, 0x00, 0x00, 0x0e, 0x00, 0x18, 0x00, 0x08, 0x00,
  0x0c, 0x00, 0x10, 0x00, 0x07, 0x00, 0x14, 0x00, 0x0e, 0x00, 0x00, 0x00,
  0x00, 0x00, 0x00, 0x09, 0x01, 0x00, 0x00, 0x00, 0x1c, 0x00, 0x00, 0x00,
  0x10, 0x00, 0x00, 0x00, 0x04, 0x00, 0x00, 0x00, 0x1e, 0xf5, 0xff, 0xff,
  0x00, 0x00, 0x80, 0x3f, 0x01, 0x00, 0x00, 0x00, 0x0d, 0x00, 0x00, 0x00,
  0x01, 0x00, 0x00, 0x00, 0x0c, 0x00, 0x00, 0x00, 0x08, 0xfd, 0xff, 0xff,
  0x19, 0x00, 0x00, 0x00, 0x00, 0x00, 0x00, 0x19, 0x01, 0x00, 0x00, 0x00,
  0xd8, 0xf4, 0xff, 0xff, 0x14, 0x00, 0x00, 0x00, 0x0e, 0x00, 0x00, 0x00,
  0x18, 0x00, 0x00, 0x00, 0x40, 0x00, 0x00, 0x00, 0x30, 0x00, 0x00, 0x00,
  0x02, 0x00, 0x00, 0x00, 0x01, 0x00, 0x00, 0x00, 0x06, 0x00, 0x00, 0x00,
  0x19, 0x00, 0x00, 0x00, 0x53, 0x74, 0x61, 0x74, 0x65, 0x66, 0x75, 0x6c,
  0x50, 0x61, 0x72, 0x74, 0x69, 0x74, 0x69, 0x6f, 0x6e, 0x65, 0x64, 0x43,
  0x61, 0x6c, 0x6c, 0x3a, 0x30, 0x00, 0x00, 0x00, 0x02, 0x00, 0x00, 0x00,
  0xff, 0xff, 0xff, 0xff, 0x06, 0x00, 0x00, 0x00, 0xb8, 0xf4, 0xff, 0xff,
  0x8e, 0xfe, 0xff, 0xff, 0x00, 0x00, 0x00, 0x08, 0x18, 0x00, 0x00, 0x00,
  0x0c, 0x00, 0x00, 0x00, 0x04, 0x00, 0x00, 0x00, 0xd0, 0xf4, 0xff, 0xff,
  0x01, 0x00, 0x00, 0x00, 0x0c, 0x00, 0x00, 0x00, 0x03, 0x00, 0x00, 0x00,
  0x0b, 0x00, 0x00, 0x00, 0x08, 0x00, 0x00, 0x00, 0x01, 0x00, 0x00, 0x00,
  0x5c, 0xf5, 0xff, 0xff, 0x14, 0x00, 0x00, 0x00, 0x0d, 0x00, 0x00, 0x00,
  0x18, 0x00, 0x00, 0x00, 0x64, 0x00, 0x00, 0x00, 0x54, 0x00, 0x00, 0x00,
  0x02, 0x00, 0x00, 0x00, 0x01, 0x00, 0x00, 0x00, 0x06, 0x00, 0x00, 0x00,
  0x3c, 0x00, 0x00, 0x00, 0x73, 0x65, 0x71, 0x75, 0x65, 0x6e, 0x74, 0x69,
  0x61, 0x6c, 0x5f, 0x31, 0x31, 0x2f, 0x64, 0x65, 0x6e, 0x73, 0x65, 0x5f,
  0x33, 0x31, 0x2f, 0x4d, 0x61, 0x74, 0x4d, 0x75, 0x6c, 0x3b, 0x73, 0x65,
  0x71, 0x75, 0x65, 0x6e, 0x74, 0x69, 0x61, 0x6c, 0x5f, 0x31, 0x31, 0x2f,
  0x64, 0x65, 0x6e, 0x73, 0x65, 0x5f, 0x33, 0x31, 0x2f, 0x42, 0x69, 0x61,
  0x73, 0x41, 0x64, 0x64, 0x00, 0x00, 0x00, 0x00, 0x02, 0x00, 0x00, 0x00,
  0xff, 0xff, 0xff, 0xff, 0x06, 0x00, 0x00, 0x00, 0x60, 0xf5, 0xff, 0xff,
  0x36, 0xff, 0xff, 0xff, 0x00, 0x00, 0x00, 0x08, 0x1c, 0x00, 0x00, 0x00,
  0x10, 0x00, 0x00, 0x00, 0x04, 0x00, 0x00, 0x00, 0x4e, 0xfe, 0xff, 0xff,
  0x00, 0x00, 0x00, 0x01, 0x01, 0x00, 0x00, 0x00, 0x0b, 0x00, 0x00, 0x00,
  0x03, 0x00, 0x00, 0x00, 0x0a, 0x00, 0x00, 0x00, 0x07, 0x00, 0x00, 0x00,
  0x02, 0x00, 0x00, 0x00, 0x08, 0xf6, 0xff, 0xff, 0x14, 0x00, 0x00, 0x00,
  0x0c, 0x00, 0x00, 0x00, 0x18, 0x00, 0x00, 0x00, 0x80, 0x00, 0x00, 0x00,
  0x70, 0x00, 0x00, 0x00, 0x02, 0x00, 0x00, 0x00, 0x01, 0x00, 0x00, 0x00,
  0x05, 0x00, 0x00, 0x00, 0x58, 0x00, 0x00, 0x00, 0x73, 0x65, 0x71, 0x75,
  0x65, 0x6e, 0x74, 0x69, 0x61, 0x6c, 0x5f, 0x31, 0x31, 0x2f, 0x64, 0x65,
  0x6e, 0x73, 0x65, 0x5f, 0x33, 0x30, 0x2f, 0x4d, 0x61, 0x74, 0x4d, 0x75,
  0x6c, 0x3b, 0x73, 0x65, 0x71, 0x75, 0x65, 0x6e, 0x74, 0x69, 0x61, 0x6c,
  0x5f, 0x31, 0x31, 0x2f, 0x64, 0x65, 0x6e, 0x73, 0x65, 0x5f, 0x33, 0x30,
  0x2f, 0x52, 0x65, 0x6c, 0x75, 0x3b, 0x73, 0x65, 0x71, 0x75, 0x65, 0x6e,
  0x74, 0x69, 0x61, 0x6c, 0x5f, 0x31, 0x31, 0x2f, 0x64, 0x65, 0x6e, 0x73,
  0x65, 0x5f, 0x33, 0x30, 0x2f, 0x42, 0x69, 0x61, 0x73, 0x41, 0x64, 0x64,
  0x00, 0x00, 0x00, 0x00, 0x02, 0x00, 0x00, 0x00, 0xff, 0xff, 0xff, 0xff,
  0x05, 0x00, 0x00, 0x00, 0x10, 0xf7, 0xff, 0xff, 0x00, 0x00, 0x0e, 0x00,
  0x14, 0x00, 0x00, 0x00, 0x08, 0x00, 0x0c, 0x00, 0x07, 0x00, 0x10, 0x00,
  0x0e, 0x00, 0x00, 0x00, 0x00, 0x00, 0x00, 0x08, 0x1c, 0x00, 0x00, 0x00,
  0x10, 0x00, 0x00, 0x00, 0x04, 0x00, 0x00, 0x00, 0x26, 0xff, 0xff, 0xff,
  0x00, 0x00, 0x00, 0x01, 0x01, 0x00, 0x00, 0x00, 0x0a, 0x00, 0x00, 0x00,
  0x03, 0x00, 0x00, 0x00, 0x09, 0x00, 0x00, 0x00, 0x06, 0x00, 0x00, 0x00,
  0x03, 0x00, 0x00, 0x00, 0xe0, 0xf6, 0xff, 0xff, 0x14, 0x00, 0x00, 0x00,
  0x0b, 0x00, 0x00, 0x00, 0x18, 0x00, 0x00, 0x00, 0x80, 0x00, 0x00, 0x00,
  0x70, 0x00, 0x00, 0x00, 0x02, 0x00, 0x00, 0x00, 0x01, 0x00, 0x00, 0x00,
  0x08, 0x00, 0x00, 0x00, 0x58, 0x00, 0x00, 0x00, 0x73, 0x65, 0x71, 0x75,
  0x65, 0x6e, 0x74, 0x69, 0x61, 0x6c, 0x5f, 0x31, 0x31, 0x2f, 0x64, 0x65,
  0x6e, 0x73, 0x65, 0x5f, 0x32, 0x39, 0x2f, 0x4d, 0x61, 0x74, 0x4d, 0x75,
  0x6c, 0x3b, 0x73, 0x65, 0x71, 0x75, 0x65, 0x6e, 0x74, 0x69, 0x61, 0x6c,
  0x5f, 0x31, 0x31, 0x2f, 0x64, 0x65, 0x6e, 0x73, 0x65, 0x5f, 0x32, 0x39,
  0x2f, 0x52, 0x65, 0x6c, 0x75, 0x3b, 0x73, 0x65, 0x71, 0x75, 0x65, 0x6e,
  0x74, 0x69, 0x61, 0x6c, 0x5f, 0x31, 0x31, 0x2f, 0x64, 0x65, 0x6e, 0x73,
  0x65, 0x5f, 0x32, 0x39, 0x2f, 0x42, 0x69, 0x61, 0x73, 0x41, 0x64, 0x64,
  0x00, 0x00, 0x00, 0x00, 0x02, 0x00, 0x00, 0x00, 0xff, 0xff, 0xff, 0xff,
  0x08, 0x00, 0x00, 0x00, 0xe8, 0xf7, 0xff, 0xff, 0x00, 0x00, 0x0e, 0x00,
  0x16, 0x00, 0x00, 0x00, 0x08, 0x00, 0x0c, 0x00, 0x07, 0x00, 0x10, 0x00,
  0x0e, 0x00, 0x00, 0x00, 0x00, 0x00, 0x00, 0x08, 0x24, 0x00, 0x00, 0x00,
  0x18, 0x00, 0x00, 0x00, 0x0c, 0x00, 0x00, 0x00, 0x00, 0x00, 0x06, 0x00,
  0x08, 0x00, 0x07, 0x00, 0x06, 0x00, 0x00, 0x00, 0x00, 0x00, 0x00, 0x01,
  0x01, 0x00, 0x00, 0x00, 0x09, 0x00, 0x00, 0x00, 0x03, 0x00, 0x00, 0x00,
  0x00, 0x00, 0x00, 0x00, 0x05, 0x00, 0x00, 0x00, 0x04, 0x00, 0x00, 0x00,
  0x0c, 0x00, 0x10, 0x00, 0x0b, 0x00, 0x00, 0x00, 0x0c, 0x00, 0x04, 0x00,
  0x0c, 0x00, 0x00, 0x00, 0x09, 0x00, 0x00, 0x00, 0x00, 0x00, 0x00, 0x09,
  0x01, 0x00, 0x00, 0x00, 0xdc, 0xf7, 0xff, 0xff, 0x14, 0x00, 0x00, 0x00,
  0x0a, 0x00, 0x00, 0x00, 0x18, 0x00, 0x00, 0x00, 0x80, 0x00, 0x00, 0x00,
  0x70, 0x00, 0x00, 0x00, 0x02, 0x00, 0x00, 0x00, 0x01, 0x00, 0x00, 0x00,
  0x10, 0x00, 0x00, 0x00, 0x58, 0x00, 0x00, 0x00, 0x73, 0x65, 0x71, 0x75,
  0x65, 0x6e, 0x74, 0x69, 0x61, 0x6c, 0x5f, 0x31, 0x31, 0x2f, 0x64, 0x65,
  0x6e, 0x73, 0x65, 0x5f, 0x32, 0x38, 0x2f, 0x4d, 0x61, 0x74, 0x4d, 0x75,
  0x6c, 0x3b, 0x73, 0x65, 0x71, 0x75, 0x65, 0x6e, 0x74, 0x69, 0x61, 0x6c,
  0x5f, 0x31, 0x31, 0x2f, 0x64, 0x65, 0x6e, 0x73, 0x65, 0x5f, 0x32, 0x38,
  0x2f, 0x52, 0x65, 0x6c, 0x75, 0x3b, 0x73, 0x65, 0x71, 0x75, 0x65, 0x6e,
  0x74, 0x69, 0x61, 0x6c, 0x5f, 0x31, 0x31, 0x2f, 0x64, 0x65, 0x6e, 0x73,
  0x65, 0x5f, 0x32, 0x38, 0x2f, 0x42, 0x69, 0x61, 0x73, 0x41, 0x64, 0x64,
  0x00, 0x00, 0x00, 0x00, 0x02, 0x00, 0x00, 0x00, 0xff, 0xff, 0xff, 0xff,
  0x10, 0x00, 0x00, 0x00, 0xfc, 0xf7, 0xff, 0xff, 0xde, 0xf8, 0xff, 0xff,
  0x04, 0x00, 0x00, 0x00, 0x78, 0x00, 0x00, 0x00, 0x58, 0xf0, 0xfd, 0xbf,
  0x73, 0xa3, 0x36, 0x40, 0x65, 0x12, 0x27, 0xc0, 0x2d, 0x93, 0xf6, 0x3f,
  0xd4, 0x8a, 0xdf, 0x3f, 0x98, 0x5f, 0x23, 0x3e, 0xb9, 0xdb, 0x07, 0x40,
  0x05, 0xd0, 0x3f, 0xc0, 0xa5, 0x32, 0x67, 0x3e, 0xc4, 0x73, 0x05, 0xc0,
  0x5e, 0x01, 0x76, 0xbe, 0xde, 0xc1, 0xd0, 0xbf, 0xdf, 0x29, 0x9b, 0xbe,
  0x97, 0xac, 0x8c, 0xbf, 0x6c, 0xcc, 0x05, 0xc1, 0x53, 0x08, 0x29, 0x3e,
  0x3c, 0xdf, 0xc7, 0xc0, 0x14, 0x04, 0x34, 0x3f, 0xd0, 0x82, 0xc1, 0xc0,
  0xb3, 0x79, 0x2f, 0xc0, 0xbf, 0x62, 0x34, 0x3e, 0x37, 0x1f, 0xf3, 0xc0,
  0x1a, 0x3a, 0x49, 0xbf, 0x16, 0x5c, 0x3d, 0x40, 0x89, 0x37, 0x45, 0x3f,
  0xa2, 0x1c, 0x07, 0xc0, 0xf7, 0xd0, 0xaf, 0xbf, 0x1f, 0xd1, 0x20, 0x3f,
  0x19, 0x8a, 0x0a, 0xc1, 0x9d, 0xb2, 0xc8, 0x3e, 0x36, 0xf9, 0xff, 0xff,
  0x10, 0x00, 0x00, 0x00, 0x09, 0x00, 0x00, 0x00, 0x14, 0x00, 0x00, 0x00,
  0x34, 0x00, 0x00, 0x00, 0x02, 0x00, 0x00, 0x00, 0x06, 0x00, 0x00, 0x00,
  0x05, 0x00, 0x00, 0x00, 0x1d, 0x00, 0x00, 0x00, 0x73, 0x65, 0x71, 0x75,
  0x65, 0x6e, 0x74, 0x69, 0x61, 0x6c, 0x5f, 0x31, 0x31, 0x2f, 0x64, 0x65,
  0x6e, 0x73, 0x65, 0x5f, 0x33, 0x31, 0x2f, 0x4d, 0x61, 0x74, 0x4d, 0x75,
  0x6c, 0x00, 0x00, 0x00, 0xc8, 0xf8, 0xff, 0xff, 0xaa, 0xf9, 0xff, 0xff,
  0x04, 0x00, 0x00, 0x00, 0xa0, 0x00, 0x00, 0x00, 0x1d, 0x2e, 0x17, 0x40,
  0x83, 0xf0, 0xe4, 0x3f, 0x75, 0x20, 0x83, 0x3f, 0x7a, 0x17, 0xa1, 0xbe,
  0x7a, 0x21, 0x45, 0x40, 0x6a, 0x26, 0xb6, 0xc0, 0xd6, 0x4b, 0x24, 0x40,
  0xd4, 0xf8, 0xfe, 0xbf, 0xab, 0x4e, 0x4d, 0xc0, 0x37, 0x09, 0xd3, 0x3f,
  0xd1, 0x40, 0x0f, 0x3f, 0x1e, 0x7b, 0xa1, 0x3d, 0xfd, 0x3c, 0xc0, 0xc0,
  0xb4, 0x5e, 0x8e, 0x40, 0xf3, 0x3a, 0x61, 0x40, 0xbf, 0x55, 0xb4, 0xbf,
  0x96, 0x05, 0x3a, 0x40, 0x66, 0x91, 0xd8, 0xbd, 0x20, 0x1c, 0xaa, 0x3f,
  0x6e, 0xfb, 0x9e, 0x40, 0x6c, 0x7b, 0xcf, 0x3f, 0x8c, 0xdc, 0x26, 0x40,
  0x9e, 0x37, 0x98, 0x3f, 0x4d, 0x62, 0xa6, 0x3f, 0xfd, 0xfc, 0xc7, 0x3f,
  0xf6, 0x81, 0x53, 0x3f, 0x20, 0xa7, 0x40, 0xbb, 0xe6, 0x39, 0x0f, 0xc0,
  0xbd, 0x65, 0x01, 0xbf, 0xaf, 0x19, 0xe2, 0xbc, 0x1e, 0xe2, 0x54, 0x3e,
  0xfb, 0x2c, 0x00, 0xbf, 0xe3, 0x98, 0x0f, 0x3f, 0xdc, 0xa0, 0xa2, 0xbf,
  0xd6, 0x56, 0x70, 0x3f, 0x3e, 0xd5, 0x35, 0xbf, 0xae, 0xf6, 0x04, 0xc0,
  0xce, 0x8a, 0x28, 0x40, 0x2c, 0x7c, 0x31, 0xc0, 0x61, 0x76, 0xac, 0x3f,
  0x2a, 0xfa, 0xff, 0xff, 0x10, 0x00, 0x00, 0x00, 0x08, 0x00, 0x00, 0x00,
  0x14, 0x00, 0x00, 0x00, 0x34, 0x00, 0x00, 0x00, 0x02, 0x00, 0x00, 0x00,
  0x05, 0x00, 0x00, 0x00, 0x08, 0x00, 0x00, 0x00, 0x1d, 0x00, 0x00, 0x00,
  0x73, 0x65, 0x71, 0x75, 0x65, 0x6e, 0x74, 0x69, 0x61, 0x6c, 0x5f, 0x31,
  0x31, 0x2f, 0x64, 0x65, 0x6e, 0x73, 0x65, 0x5f, 0x33, 0x30, 0x2f, 0x4d,
  0x61, 0x74, 0x4d, 0x75, 0x6c, 0x00, 0x00, 0x00, 0xbc, 0xf9, 0xff, 0xff,
  0x9e, 0xfa, 0xff, 0xff, 0x04, 0x00, 0x00, 0x00, 0x00, 0x02, 0x00, 0x00,
  0xc6, 0x4f, 0xeb, 0x3e, 0xc2, 0xf9, 0xec, 0x3f, 0x00, 0xc8, 0xad, 0x3f,
  0xa9, 0xe9, 0xa2, 0xc0, 0x45, 0xa7, 0x9e, 0xbf, 0xcc, 0xc6, 0x51, 0xc0,
  0xda, 0xbe, 0x19, 0x3f, 0x1d, 0x0f, 0x5a, 0x3f, 0x8b, 0x15, 0x3b, 0x3f,
  0x21, 0x5f, 0x5a, 0xbf, 0x41, 0x58, 0x7e, 0xbf, 0x0c, 0xc5, 0xe5, 0xbe,
  0x33, 0x7f, 0xf9, 0xbc, 0x0b, 0x96, 0xf1, 0x3e, 0x09, 0x33, 0x52, 0x40,
  0x49, 0xa7, 0xda, 0x3d, 0xc7, 0xed, 0xbb, 0x3f, 0x29, 0x86, 0xa4, 0x3f,
  0x4c, 0xce, 0xef, 0xbf, 0x6c, 0xc3, 0x26, 0xc0, 0x71, 0x97, 0xa4, 0x3f,
  0xb9, 0x9d, 0x38, 0x3e, 0x65, 0xd1, 0x2e, 0x40, 0x18, 0x7c, 0x19, 0x3f,
  0xc1, 0x23, 0xe4, 0x3d, 0x18, 0x63, 0x0b, 0xbe, 0xda, 0x97, 0x8a, 0x3b,
  0x47, 0xc1, 0xaa, 0x3f, 0xb4, 0xcf, 0x05, 0x3e, 0x95, 0x81, 0x4d, 0xc0,
  0x62, 0xa5, 0x70, 0xbd, 0xeb, 0xeb, 0x3a, 0xc0, 0xce, 0x60, 0x40, 0xc0,
  0x2e, 0x3c, 0xb5, 0xbf, 0x1d, 0x38, 0x05, 0x40, 0xbe, 0xb3, 0x01, 0xc0,
  0x41, 0x6e, 0xf6, 0xbf, 0xbf, 0xb3, 0x81, 0x40, 0xcf, 0xf9, 0x9b, 0x3f,
  0x39, 0x2e, 0xc0, 0x3f, 0x05, 0x4a, 0x70, 0x3e, 0xc7, 0x46, 0x31, 0x40,
  0xf6, 0x50, 0xa8, 0x3e, 0xae, 0xf0, 0x77, 0x40, 0xad, 0x86, 0x55, 0x3f,
  0x12, 0x07, 0x57, 0x40, 0x59, 0xb9, 0xfa, 0x3f, 0x60, 0x2a, 0x68, 0xbf,
  0x5e, 0x0a, 0x8c, 0xbf, 0xd3, 0x14, 0x09, 0xc0, 0xf3, 0xde, 0x3e, 0x40,
  0x4f, 0xa3, 0xf1, 0x3e, 0xc3, 0xb0, 0x0d, 0xc0, 0xec, 0x5b, 0xa3, 0xbd,
  0x12, 0x58, 0xca, 0xbd, 0x63, 0x62, 0xbc, 0x3f, 0xd8, 0xd0, 0x40, 0xbf,
  0x34, 0x11, 0x04, 0xc0, 0xcd, 0x7a, 0x83, 0xbf, 0x7e, 0x59, 0xe2, 0x3f,
  0x90, 0xe0, 0x4a, 0x3e, 0xb3, 0x3d, 0xc2, 0x3f, 0x36, 0xf8, 0x10, 0xbf,
  0xe5, 0x0d, 0xf0, 0xbe, 0x19, 0xe5, 0x1b, 0x3f, 0x56, 0x8e, 0x5a, 0xc0,
  0x3e, 0xfb, 0xb4, 0x3f, 0x2c, 0x61, 0x4e, 0xc0, 0xfb, 0x31, 0x64, 0x3f,
  0xfe, 0x5d, 0x5c, 0xc0, 0x80, 0x7a, 0x0c, 0xbf, 0x8c, 0xe3, 0x86, 0x3f,
  0x29, 0xf5, 0x13, 0xc0, 0x43, 0x0a, 0x2e, 0xbf, 0x13, 0x40, 0xdc, 0x3c,
  0x7a, 0x56, 0x82, 0xbf, 0x38, 0xd1, 0x12, 0xbf, 0x8d, 0x96, 0xc0, 0xbf,
  0x7d, 0xda, 0x46, 0x3e, 0x92, 0xbe, 0xaf, 0x3f, 0x3a, 0x79, 0x29, 0x3f,
  0x53, 0xc1, 0x3e, 0xc0, 0x8c, 0xf6, 0xdd, 0xbe, 0xc3, 0xce, 0x62, 0x40,
  0xe6, 0x36, 0x5a, 0xbe, 0x90, 0xe0, 0x32, 0x40, 0x22, 0xa3, 0x77, 0xbf,
  0xb4, 0xa3, 0xe8, 0xbe, 0x8a, 0xa8, 0x8d, 0x3f, 0x0a, 0xd9, 0x1a, 0xc0,
  0x88, 0x83, 0xad, 0x3f, 0x5a, 0xb9, 0xe3, 0x3f, 0xfd, 0xee, 0x5b, 0xbf,
  0xfc, 0x24, 0x30, 0x40, 0x66, 0xa3, 0x28, 0xbe, 0x63, 0x8a, 0x7b, 0x3f,
  0x57, 0x5a, 0xb7, 0xbf, 0xc1, 0xe3, 0x20, 0x40, 0x1d, 0xf7, 0x50, 0xc0,
  0xd2, 0x00, 0x01, 0xbf, 0x01, 0x59, 0x8b, 0xbf, 0x35, 0x78, 0x5d, 0xbf,
  0xe3, 0x71, 0x59, 0x40, 0xf4, 0x23, 0x21, 0x3b, 0x63, 0x6f, 0x34, 0x3f,
  0x0a, 0xd3, 0xcd, 0x3f, 0x73, 0x0b, 0x8d, 0xbf, 0x0e, 0x19, 0xa3, 0x3f,
  0xbf, 0x6a, 0x0d, 0x3f, 0xb6, 0xb0, 0x9b, 0xbf, 0xa1, 0x54, 0xc9, 0xbf,
  0x8f, 0x5e, 0x5f, 0xc0, 0xcb, 0x52, 0xa4, 0x3f, 0x50, 0x35, 0xf7, 0xbf,
  0xa9, 0x9d, 0xea, 0x3f, 0xe0, 0x62, 0x4f, 0x40, 0x99, 0x3b, 0xa9, 0x3f,
  0x28, 0xcc, 0xce, 0x40, 0xd5, 0x9d, 0x9e, 0xbf, 0x2c, 0x7f, 0x53, 0x3f,
  0x3c, 0x6a, 0xe2, 0xbe, 0x9f, 0x8a, 0x1d, 0x3f, 0x38, 0x23, 0xec, 0x3e,
  0x6a, 0x5f, 0x4c, 0xbf, 0x47, 0x66, 0x2e, 0xbf, 0xa5, 0x60, 0xaa, 0xc0,
  0x2a, 0x6d, 0x40, 0x3e, 0x40, 0x77, 0x98, 0x3f, 0x7e, 0xfc, 0xff, 0xff,
  0x10, 0x00, 0x00, 0x00, 0x07, 0x00, 0x00, 0x00, 0x14, 0x00, 0x00, 0x00,
  0x34, 0x00, 0x00, 0x00, 0x02, 0x00, 0x00, 0x00, 0x08, 0x00, 0x00, 0x00,
  0x10, 0x00, 0x00, 0x00, 0x1d, 0x00, 0x00, 0x00, 0x73, 0x65, 0x71, 0x75,
  0x65, 0x6e, 0x74, 0x69, 0x61, 0x6c, 0x5f, 0x31, 0x31, 0x2f, 0x64, 0x65,
  0x6e, 0x73, 0x65, 0x5f, 0x32, 0x39, 0x2f, 0x4d, 0x61, 0x74, 0x4d, 0x75,
  0x6c, 0x00, 0x00, 0x00, 0x10, 0xfc, 0xff, 0xff, 0xf2, 0xfc, 0xff, 0xff,
  0x04, 0x00, 0x00, 0x00, 0x80, 0x01, 0x00, 0x00, 0x36, 0x56, 0xae, 0x3f,
  0xc2, 0xa6, 0x25, 0xc0, 0x07, 0x77, 0x5f, 0xc0, 0x7d, 0xc8, 0x93, 0xc0,
  0xe5, 0x72, 0x23, 0x3d, 0x25, 0x1f, 0xd5, 0x40, 0xd8, 0x31, 0x05, 0x3f,
  0x9a, 0xe0, 0x99, 0xbd, 0x17, 0x80, 0x8c, 0x3e, 0xea, 0x08, 0xc4, 0x3f,
  0x32, 0x7e, 0x4a, 0xc0, 0x1d, 0xd9, 0xb7, 0xbe, 0x8f, 0xda, 0xb0, 0x3f,
  0x0f, 0x1a, 0xb7, 0xbf, 0x9f, 0x7f, 0x07, 0xbe, 0x1e, 0x30, 0x09, 0x3f,
  0x76, 0x8a, 0x07, 0xc0, 0xb5, 0xd7, 0xc6, 0xbe, 0x8a, 0xfa, 0x6c, 0xbc,
  0x49, 0x17, 0x34, 0xbe, 0x02, 0x81, 0xf4, 0x3e, 0x69, 0x45, 0x8f, 0xbf,
  0xec, 0xad, 0x15, 0xbf, 0xfe, 0xe2, 0x53, 0x3e, 0xbc, 0x97, 0x16, 0x3f,
  0x0a, 0x3c, 0x9a, 0xbf, 0xa9, 0x7f, 0x8a, 0x3f, 0x94, 0xd2, 0xcf, 0x3f,
  0x4e, 0x54, 0x56, 0xbf, 0x86, 0x05, 0x38, 0x40, 0xc4, 0x6d, 0xd8, 0x3d,
  0xa8, 0x06, 0xe6, 0xbe, 0x01, 0xa5, 0x98, 0x3f, 0x17, 0x0e, 0x8a, 0x40,
  0xa7, 0x8a, 0x1e, 0x40, 0x0b, 0xdd, 0x1f, 0x40, 0xe7, 0x23, 0x4c, 0xc0,
  0xfc, 0x07, 0x3f, 0x40, 0xf8, 0xd8, 0x83, 0x3f, 0x86, 0xec, 0xf0, 0xbf,
  0xb0, 0x48, 0x0a, 0x40, 0x32, 0x6c, 0xa3, 0x40, 0x3e, 0xd5, 0x05, 0x40,
  0xcd, 0x05, 0x72, 0xbf, 0x7c, 0xe1, 0xf8, 0xbe, 0x88, 0x58, 0x28, 0x40,
  0xe0, 0x24, 0x49, 0x40, 0x20, 0x03, 0xc0, 0xbe, 0x3e, 0x52, 0x8f, 0xbe,
  0xd8, 0x20, 0xb1, 0x3f, 0xa0, 0xe0, 0xd2, 0x3f, 0x7a, 0x78, 0x51, 0xbf,
  0x5a, 0xf3, 0x24, 0xbc, 0x3f, 0xa5, 0x9c, 0xbf, 0xc3, 0x0b, 0x42, 0x3f,
  0xfd, 0xe8, 0x53, 0x3f, 0x8f, 0x4b, 0x0c, 0xbf, 0x6a, 0xdf, 0x31, 0x40,
  0xf2, 0x7c, 0xef, 0x3f, 0x86, 0x9b, 0x92, 0x3f, 0x43, 0x48, 0xb3, 0x3d,
  0x90, 0x80, 0x05, 0xc0, 0xe4, 0x51, 0xb5, 0xbf, 0x27, 0x8a, 0xb3, 0xbe,
  0xd0, 0xd3, 0x16, 0xc0, 0x78, 0x92, 0xd3, 0x3f, 0x97, 0x27, 0xba, 0xbf,
  0x7c, 0x01, 0x28, 0x3f, 0x08, 0x61, 0x11, 0xbf, 0x39, 0x48, 0x02, 0x40,
  0xde, 0xda, 0xa5, 0x3f, 0x27, 0x99, 0x9c, 0xbf, 0x42, 0xd8, 0x22, 0xbf,
  0x01, 0x16, 0xd3, 0xbf, 0xe1, 0x3f, 0xc0, 0x3f, 0x8d, 0x2a, 0x02, 0x40,
  0xcf, 0xd0, 0x27, 0x40, 0x2e, 0xd0, 0xdd, 0x3e, 0x06, 0x2e, 0xb9, 0xbf,
  0xbc, 0xb5, 0x8a, 0x3f, 0x62, 0x08, 0x82, 0x3e, 0x2b, 0xc1, 0xa2, 0x3e,
  0xd6, 0x2b, 0xca, 0x3f, 0xc9, 0xd4, 0xda, 0x3f, 0x15, 0x7e, 0x14, 0xc0,
  0xd0, 0x96, 0xc0, 0x3f, 0x6e, 0x90, 0x92, 0x3f, 0x1d, 0x42, 0xf7, 0xbe,
  0x49, 0x8c, 0xc3, 0x3f, 0x4f, 0x79, 0x61, 0x3e, 0x55, 0x68, 0x0a, 0xbf,
  0xd8, 0x3c, 0xbe, 0x3d, 0xe2, 0x41, 0xe5, 0x3e, 0x5c, 0x58, 0xe2, 0xbf,
  0xd2, 0x47, 0x20, 0xbf, 0x1d, 0xe4, 0x1f, 0x40, 0x52, 0xfe, 0xff, 0xff,
  0x10, 0x00, 0x00, 0x00, 0x06, 0x00, 0x00, 0x00, 0x14, 0x00, 0x00, 0x00,
  0x34, 0x00, 0x00, 0x00, 0x02, 0x00, 0x00, 0x00, 0x10, 0x00, 0x00, 0x00,
  0x06, 0x00, 0x00, 0x00, 0x1d, 0x00, 0x00, 0x00, 0x73, 0x65, 0x71, 0x75,
  0x65, 0x6e, 0x74, 0x69, 0x61, 0x6c, 0x5f, 0x31, 0x31, 0x2f, 0x64, 0x65,
  0x6e, 0x73, 0x65, 0x5f, 0x32, 0x38, 0x2f, 0x4d, 0x61, 0x74, 0x4d, 0x75,
  0x6c, 0x00, 0x00, 0x00, 0xe4, 0xfd, 0xff, 0xff, 0xc6, 0xfe, 0xff, 0xff,
  0x04, 0x00, 0x00, 0x00, 0x40, 0x00, 0x00, 0x00, 0x69, 0xfb, 0xea, 0xbe,
  0xd2, 0x84, 0xa4, 0xbd, 0x7e, 0xd1, 0xb4, 0xbe, 0x58, 0x36, 0x60, 0xbc,
  0x8a, 0x77, 0xb0, 0xbc, 0xe2, 0xa9, 0x29, 0xbe, 0x89, 0x4e, 0x87, 0x3e,
  0xff, 0x93, 0x10, 0x3e, 0x33, 0x30, 0x1a, 0x3f, 0x71, 0x8b, 0x0c, 0x3e,
  0x62, 0x16, 0x83, 0x3e, 0x05, 0xae, 0xd4, 0x3e, 0x76, 0xc9, 0xca, 0x3f,
  0x4f, 0x69, 0x89, 0x3e, 0x94, 0x57, 0xad, 0xbc, 0x10, 0x61, 0x85, 0x3e,
  0xe6, 0xfe, 0xff, 0xff, 0x10, 0x00, 0x00, 0x00, 0x05, 0x00, 0x00, 0x00,
  0x10, 0x00, 0x00, 0x00, 0x20, 0x00, 0x00, 0x00, 0x01, 0x00, 0x00, 0x00,
  0x10, 0x00, 0x00, 0x00, 0x0d, 0x00, 0x00, 0x00, 0x64, 0x65, 0x6e, 0x73,
  0x65, 0x5f, 0x32, 0x38, 0x2f, 0x62, 0x69, 0x61, 0x73, 0x00, 0x00, 0x00,
  0x64, 0xfe, 0xff, 0xff, 0x46, 0xff, 0xff, 0xff, 0x04, 0x00, 0x00, 0x00,
  0x20, 0x00, 0x00, 0x00, 0xe6, 0xa4, 0xba, 0x3e, 0x13, 0x24, 0xd7, 0xbe,
  0x6b, 0x53, 0x7b, 0x3f, 0x01, 0x05, 0x0e, 0x3f, 0x99, 0xde, 0x3f, 0xbd,
  0xa6, 0xf9, 0xb6, 0xbe, 0x20, 0x43, 0xad, 0x3d, 0x94, 0xc8, 0x23, 0xbe,
  0x46, 0xff, 0xff, 0xff, 0x10, 0x00, 0x00, 0x00, 0x04, 0x00, 0x00, 0x00,
  0x10, 0x00, 0x00, 0x00, 0x20, 0x00, 0x00, 0x00, 0x01, 0x00, 0x00, 0x00,
  0x08, 0x00, 0x00, 0x00, 0x0d, 0x00, 0x00, 0x00, 0x64, 0x65, 0x6e, 0x73,
  0x65, 0x5f, 0x32, 0x39, 0x2f, 0x62, 0x69, 0x61, 0x73, 0x00, 0x00, 0x00,
  0xc4, 0xfe, 0xff, 0xff, 0xa6, 0xff, 0xff, 0xff, 0x04, 0x00, 0x00, 0x00,
  0x14, 0x00, 0x00, 0x00, 0x1d, 0xd7, 0x87, 0x3f, 0x59, 0x9a, 0x0f, 0xbf,
  0x3c, 0xdb, 0x5a, 0x3f, 0xe6, 0x14, 0x2e, 0x3f, 0x58, 0x61, 0x64, 0xb9,
  0x9a, 0xff, 0xff, 0xff, 0x10, 0x00, 0x00, 0x00, 0x03, 0x00, 0x00, 0x00,
  0x10, 0x00, 0x00, 0x00, 0x24, 0x00, 0x00, 0x00, 0x01, 0x00, 0x00, 0x00,
  0x05, 0x00, 0x00, 0x00, 0x0d, 0x00, 0x00, 0x00, 0x64, 0x65, 0x6e, 0x73,
  0x65, 0x5f, 0x33, 0x30, 0x2f, 0x62, 0x69, 0x61, 0x73, 0x00, 0x00, 0x00,
  0x04, 0x00, 0x06, 0x00, 0x04, 0x00, 0x00, 0x00, 0x00, 0x00, 0x06, 0x00,
  0x08, 0x00, 0x04, 0x00, 0x06, 0x00, 0x00, 0x00, 0x04, 0x00, 0x00, 0x00,
  0x18, 0x00, 0x00, 0x00, 0xa4, 0xed, 0x0e, 0x40, 0x21, 0xa5, 0x81, 0x3f,
  0x77, 0x91, 0x9d, 0xc0, 0x57, 0x5f, 0xef, 0xbe, 0x6a, 0x48, 0x46, 0x3e,
  0x2f, 0x48, 0x94, 0xbf, 0x00, 0x00, 0x0e, 0x00, 0x14, 0x00, 0x04, 0x00,
  0x00, 0x00, 0x08, 0x00, 0x0c, 0x00, 0x10, 0x00, 0x0e, 0x00, 0x00, 0x00,
  0x10, 0x00, 0x00, 0x00, 0x02, 0x00, 0x00, 0x00, 0x10, 0x00, 0x00, 0x00,
  0x20, 0x00, 0x00, 0x00, 0x01, 0x00, 0x00, 0x00, 0x06, 0x00, 0x00, 0x00,
  0x0d, 0x00, 0x00, 0x00, 0x64, 0x65, 0x6e, 0x73, 0x65, 0x5f, 0x33, 0x31,
  0x2f, 0x62, 0x69, 0x61, 0x73, 0x00, 0x00, 0x00, 0x8c, 0xff, 0xff, 0xff,
  0x14, 0x00, 0x18, 0x00, 0x04, 0x00, 0x00, 0x00, 0x08, 0x00, 0x0c, 0x00,
  0x10, 0x00, 0x00, 0x00, 0x00, 0x00, 0x14, 0x00, 0x14, 0x00, 0x00, 0x00,
  0x14, 0x00, 0x00, 0x00, 0x01, 0x00, 0x00, 0x00, 0x18, 0x00, 0x00, 0x00,
  0x48, 0x00, 0x00, 0x00, 0x38, 0x00, 0x00, 0x00, 0x02, 0x00, 0x00, 0x00,
  0x01, 0x00, 0x00, 0x00, 0x06, 0x00, 0x00, 0x00, 0x20, 0x00, 0x00, 0x00,
  0x73, 0x65, 0x72, 0x76, 0x69, 0x6e, 0x67, 0x5f, 0x64, 0x65, 0x66, 0x61,
  0x75, 0x6c, 0x74, 0x5f, 0x64, 0x65, 0x6e, 0x73, 0x65, 0x5f, 0x32, 0x38,
  0x5f, 0x69, 0x6e, 0x70, 0x75, 0x74, 0x3a, 0x30, 0x00, 0x00, 0x00, 0x00,
  0x02, 0x00, 0x00, 0x00, 0xff, 0xff, 0xff, 0xff, 0x06, 0x00, 0x00, 0x00,
  0xfc, 0xff, 0xff, 0xff, 0x04, 0x00, 0x04, 0x00, 0x04, 0x00, 0x00, 0x00
};
