const unsigned char model[] = {
  0x1c, 0x00, 0x00, 0x00, 0x54, 0x46, 0x4c, 0x33, 0x14, 0x00, 0x20, 0x00,
  0x04, 0x00, 0x08, 0x00, 0x0c, 0x00, 0x10, 0x00, 0x14, 0x00, 0x00, 0x00,
  0x18, 0x00, 0x1c, 0x00, 0x14, 0x00, 0x00, 0x00, 0x03, 0x00, 0x00, 0x00,
  0x18, 0x00, 0x00, 0x00, 0x20, 0x00, 0x00, 0x00, 0x3c, 0x01, 0x00, 0x00,
  0x20, 0x00, 0x00, 0x00, 0xe4, 0x00, 0x00, 0x00, 0x5c, 0x00, 0x00, 0x00,
  0x02, 0x00, 0x00, 0x00, 0x00, 0x05, 0x00, 0x00, 0x0c, 0x02, 0x00, 0x00,
  0x01, 0x00, 0x00, 0x00, 0x40, 0x01, 0x00, 0x00, 0x10, 0x00, 0x00, 0x00,
  0xd8, 0x0d, 0x00, 0x00, 0xd4, 0x0d, 0x00, 0x00, 0xe8, 0x0c, 0x00, 0x00,
  0x84, 0x0c, 0x00, 0x00, 0x20, 0x0c, 0x00, 0x00, 0x9c, 0x0b, 0x00, 0x00,
  0xc8, 0x09, 0x00, 0x00, 0x74, 0x07, 0x00, 0x00, 0x80, 0x06, 0x00, 0x00,
  0x64, 0x05, 0x00, 0x00, 0xb0, 0x0d, 0x00, 0x00, 0xac, 0x0d, 0x00, 0x00,
  0xa8, 0x0d, 0x00, 0x00, 0xa4, 0x0d, 0x00, 0x00, 0xa0, 0x0d, 0x00, 0x00,
  0xbc, 0x00, 0x00, 0x00, 0x01, 0x00, 0x00, 0x00, 0x10, 0x00, 0x00, 0x00,
  0x00, 0x00, 0x0a, 0x00, 0x10, 0x00, 0x0c, 0x00, 0x08, 0x00, 0x04, 0x00,
  0x0a, 0x00, 0x00, 0x00, 0x0c, 0x00, 0x00, 0x00, 0x1c, 0x00, 0x00, 0x00,
  0x20, 0x00, 0x00, 0x00, 0x0f, 0x00, 0x00, 0x00, 0x73, 0x65, 0x72, 0x76,
  0x69, 0x6e, 0x67, 0x5f, 0x64, 0x65, 0x66, 0x61, 0x75, 0x6c, 0x74, 0x00,
  0x01, 0x00, 0x00, 0x00, 0x14, 0x00, 0x00, 0x00, 0x01, 0x00, 0x00, 0x00,
  0x24, 0x00, 0x00, 0x00, 0x08, 0x00, 0x0c, 0x00, 0x08, 0x00, 0x04, 0x00,
  0x08, 0x00, 0x00, 0x00, 0x0d, 0x00, 0x00, 0x00, 0x04, 0x00, 0x00, 0x00,
  0x07, 0x00, 0x00, 0x00, 0x64, 0x65, 0x6e, 0x73, 0x65, 0x5f, 0x37, 0x00,
  0xbe, 0xf3, 0xff, 0xff, 0x04, 0x00, 0x00, 0x00, 0x0d, 0x00, 0x00, 0x00,
  0x64, 0x65, 0x6e, 0x73, 0x65, 0x5f, 0x34, 0x5f, 0x69, 0x6e, 0x70, 0x75,
  0x74, 0x00, 0x00, 0x00, 0x01, 0x00, 0x00, 0x00, 0x0c, 0x00, 0x00, 0x00,
  0x08, 0x00, 0x0c, 0x00, 0x04, 0x00, 0x08, 0x00, 0x08, 0x00, 0x00, 0x00,
  0x08, 0x00, 0x00, 0x00, 0x0f, 0x00, 0x00, 0x00, 0x13, 0x00, 0x00, 0x00,
  0x6d, 0x69, 0x6e, 0x5f, 0x72, 0x75, 0x6e, 0x74, 0x69, 0x6d, 0x65, 0x5f,
  0x76, 0x65, 0x72, 0x73, 0x69, 0x6f, 0x6e, 0x00, 0x0e, 0xf4, 0xff, 0xff,
  0x04, 0x00, 0x00, 0x00, 0x10, 0x00, 0x00, 0x00, 0x31, 0x2e, 0x35, 0x2e,
  0x30, 0x00, 0x00, 0x00, 0x00, 0x00, 0x00, 0x00, 0x00, 0x00, 0x00, 0x00,
  0x0f, 0x00, 0x00, 0x00, 0x4d, 0x4c, 0x49, 0x52, 0x20, 0x43, 0x6f, 0x6e,
  0x76, 0x65, 0x72, 0x74, 0x65, 0x64, 0x2e, 0x00, 0x00, 0x00, 0x0e, 0x00,
  0x18, 0x00, 0x04, 0x00, 0x08, 0x00, 0x0c, 0x00, 0x10, 0x00, 0x14, 0x00,
  0x0e, 0x00, 0x00, 0x00, 0x14, 0x00, 0x00, 0x00, 0x4c, 0x00, 0x00, 0x00,
  0x50, 0x00, 0x00, 0x00, 0x54, 0x00, 0x00, 0x00, 0x68, 0x00, 0x00, 0x00,
  0x0e, 0x00, 0x00, 0x00, 0x28, 0x0c, 0x00, 0x00, 0xdc, 0x0b, 0x00, 0x00,
  0x54, 0x0b, 0x00, 0x00, 0xfc, 0x0a, 0x00, 0x00, 0x98, 0x0a, 0x00, 0x00,
  0x04, 0x0a, 0x00, 0x00, 0x30, 0x08, 0x00, 0x00, 0xdc, 0x05, 0x00, 0x00,
  0xe8, 0x04, 0x00, 0x00, 0x84, 0x03, 0x00, 0x00, 0x8c, 0x02, 0x00, 0x00,
  0xb8, 0x01, 0x00, 0x00, 0x0c, 0x01, 0x00, 0x00, 0x84, 0x00, 0x00, 0x00,
  0x01, 0x00, 0x00, 0x00, 0x00, 0x00, 0x00, 0x00, 0x01, 0x00, 0x00, 0x00,
  0x0d, 0x00, 0x00, 0x00, 0x05, 0x00, 0x00, 0x00, 0x04, 0x03, 0x00, 0x00,
  0x30, 0x02, 0x00, 0x00, 0x5c, 0x01, 0x00, 0x00, 0xb4, 0x00, 0x00, 0x00,
  0x1c, 0x00, 0x00, 0x00, 0x04, 0x00, 0x00, 0x00, 0x6d, 0x61, 0x69, 0x6e,
  0x00, 0x00, 0x0e, 0x00, 0x18, 0x00, 0x08, 0x00, 0x0c, 0x00, 0x10, 0x00,
  0x07, 0x00, 0x14, 0x00, 0x0e, 0x00, 0x00, 0x00, 0x00, 0x00, 0x00, 0x09,
  0x01, 0x00, 0x00, 0x00, 0x1c, 0x00, 0x00, 0x00, 0x10, 0x00, 0x00, 0x00,
  0x04, 0x00, 0x00, 0x00, 0xfa, 0xf4, 0xff, 0xff, 0x00, 0x00, 0x80, 0x3f,
  0x01, 0x00, 0x00, 0x00, 0x0d, 0x00, 0x00, 0x00, 0x01, 0x00, 0x00, 0x00,
  0x0c, 0x00, 0x00, 0x00, 0x1c, 0xfd, 0xff, 0xff, 0x19, 0x00, 0x00, 0x00,
  0x00, 0x00, 0x00, 0x19, 0x01, 0x00, 0x00, 0x00, 0xa4, 0xf4, 0xff, 0xff,
  0x14, 0x00, 0x00, 0x00, 0x0e, 0x00, 0x00, 0x00, 0x18, 0x00, 0x00, 0x00,
  0x40, 0x00, 0x00, 0x00, 0x30, 0x00, 0x00, 0x00, 0x02, 0x00, 0x00, 0x00,
  0x01, 0x00, 0x00, 0x00, 0x0a, 0x00, 0x00, 0x00, 0x19, 0x00, 0x00, 0x00,
  0x53, 0x74, 0x61, 0x74, 0x65, 0x66, 0x75, 0x6c, 0x50, 0x61, 0x72, 0x74,
  0x69, 0x74, 0x69, 0x6f, 0x6e, 0x65, 0x64, 0x43, 0x61, 0x6c, 0x6c, 0x3a,
  0x30, 0x00, 0x00, 0x00, 0x02, 0x00, 0x00, 0x00, 0xff, 0xff, 0xff, 0xff,
  0x0a, 0x00, 0x00, 0x00, 0x88, 0xf4, 0xff, 0xff, 0x9a, 0xfe, 0xff, 0xff,
  0x00, 0x00, 0x00, 0x08, 0x18, 0x00, 0x00, 0x00, 0x0c, 0x00, 0x00, 0x00,
  0x04, 0x00, 0x00, 0x00, 0xa0, 0xf4, 0xff, 0xff, 0x01, 0x00, 0x00, 0x00,
  0x0c, 0x00, 0x00, 0x00, 0x03, 0x00, 0x00, 0x00, 0x0b, 0x00, 0x00, 0x00,
  0x08, 0x00, 0x00, 0x00, 0x01, 0x00, 0x00, 0x00, 0x28, 0xf5, 0xff, 0xff,
  0x14, 0x00, 0x00, 0x00, 0x0d, 0x00, 0x00, 0x00, 0x18, 0x00, 0x00, 0x00,
  0x60, 0x00, 0x00, 0x00, 0x50, 0x00, 0x00, 0x00, 0x02, 0x00, 0x00, 0x00,
  0x01, 0x00, 0x00, 0x00, 0x0a, 0x00, 0x00, 0x00, 0x38, 0x00, 0x00, 0x00,
  0x73, 0x65, 0x71, 0x75, 0x65, 0x6e, 0x74, 0x69, 0x61, 0x6c, 0x5f, 0x31,
  0x2f, 0x64, 0x65, 0x6e, 0x73, 0x65, 0x5f, 0x37, 0x2f, 0x4d, 0x61, 0x74,
  0x4d, 0x75, 0x6c, 0x3b, 0x73, 0x65, 0x71, 0x75, 0x65, 0x6e, 0x74, 0x69,
  0x61, 0x6c, 0x5f, 0x31, 0x2f, 0x64, 0x65, 0x6e, 0x73, 0x65, 0x5f, 0x37,
  0x2f, 0x42, 0x69, 0x61, 0x73, 0x41, 0x64, 0x64, 0x00, 0x00, 0x00, 0x00,
  0x02, 0x00, 0x00, 0x00, 0xff, 0xff, 0xff, 0xff, 0x0a, 0x00, 0x00, 0x00,
  0x2c, 0xf5, 0xff, 0xff, 0x3e, 0xff, 0xff, 0xff, 0x00, 0x00, 0x00, 0x08,
  0x1c, 0x00, 0x00, 0x00, 0x10, 0x00, 0x00, 0x00, 0x04, 0x00, 0x00, 0x00,
  0x5e, 0xfe, 0xff, 0xff, 0x00, 0x00, 0x00, 0x01, 0x01, 0x00, 0x00, 0x00,
  0x0b, 0x00, 0x00, 0x00, 0x03, 0x00, 0x00, 0x00, 0x0a, 0x00, 0x00, 0x00,
  0x07, 0x00, 0x00, 0x00, 0x02, 0x00, 0x00, 0x00, 0xd0, 0xf5, 0xff, 0xff,
  0x14, 0x00, 0x00, 0x00, 0x0c, 0x00, 0x00, 0x00, 0x18, 0x00, 0x00, 0x00,
  0x78, 0x00, 0x00, 0x00, 0x68, 0x00, 0x00, 0x00, 0x02, 0x00, 0x00, 0x00,
  0x01, 0x00, 0x00, 0x00, 0x05, 0x00, 0x00, 0x00, 0x52, 0x00, 0x00, 0x00,
  0x73, 0x65, 0x71, 0x75, 0x65, 0x6e, 0x74, 0x69, 0x61, 0x6c, 0x5f, 0x31,
  0x2f, 0x64, 0x65, 0x6e, 0x73, 0x65, 0x5f, 0x36, 0x2f, 0x4d, 0x61, 0x74,
  0x4d, 0x75, 0x6c, 0x3b, 0x73, 0x65, 0x71, 0x75, 0x65, 0x6e, 0x74, 0x69,
  0x61, 0x6c, 0x5f, 0x31, 0x2f, 0x64, 0x65, 0x6e, 0x73, 0x65, 0x5f, 0x36,
  0x2f, 0x52, 0x65, 0x6c, 0x75, 0x3b, 0x73, 0x65, 0x71, 0x75, 0x65, 0x6e,
  0x74, 0x69, 0x61, 0x6c, 0x5f, 0x31, 0x2f, 0x64, 0x65, 0x6e, 0x73, 0x65,
  0x5f, 0x36, 0x2f, 0x42, 0x69, 0x61, 0x73, 0x41, 0x64, 0x64, 0x00, 0x00,
  0x02, 0x00, 0x00, 0x00, 0xff, 0xff, 0xff, 0xff, 0x05, 0x00, 0x00, 0x00,
  0xe0, 0xf6, 0xff, 0xff, 0x00, 0x00, 0x0e, 0x00, 0x14, 0x00, 0x00, 0x00,
  0x08, 0x00, 0x0c, 0x00, 0x07, 0x00, 0x10, 0x00, 0x0e, 0x00, 0x00, 0x00,
  0x00, 0x00, 0x00, 0x08, 0x1c, 0x00, 0x00, 0x00, 0x10, 0x00, 0x00, 0x00,
  0x04, 0x00, 0x00, 0x00, 0x2e, 0xff, 0xff, 0xff, 0x00, 0x00, 0x00, 0x01,
  0x01, 0x00, 0x00, 0x00, 0x0a, 0x00, 0x00, 0x00, 0x03, 0x00, 0x00, 0x00,
  0x09, 0x00, 0x00, 0x00, 0x06, 0x00, 0x00, 0x00, 0x03, 0x00, 0x00, 0x00,
  0xa0, 0xf6, 0xff, 0xff, 0x14, 0x00, 0x00, 0x00, 0x0b, 0x00, 0x00, 0x00,
  0x18, 0x00, 0x00, 0x00, 0x78, 0x00, 0x00, 0x00, 0x68, 0x00, 0x00, 0x00,
  0x02, 0x00, 0x00, 0x00, 0x01, 0x00, 0x00, 0x00, 0x08, 0x00, 0x00, 0x00,
  0x52, 0x00, 0x00, 0x00, 0x73, 0x65, 0x71, 0x75, 0x65, 0x6e, 0x74, 0x69,
  0x61, 0x6c, 0x5f, 0x31, 0x2f, 0x64, 0x65, 0x6e, 0x73, 0x65, 0x5f, 0x35,
  0x2f, 0x4d, 0x61, 0x74, 0x4d, 0x75, 0x6c, 0x3b, 0x73, 0x65, 0x71, 0x75,
  0x65, 0x6e, 0x74, 0x69, 0x61, 0x6c, 0x5f, 0x31, 0x2f, 0x64, 0x65, 0x6e,
  0x73, 0x65, 0x5f, 0x35, 0x2f, 0x52, 0x65, 0x6c, 0x75, 0x3b, 0x73, 0x65,
  0x71, 0x75, 0x65, 0x6e, 0x74, 0x69, 0x61, 0x6c, 0x5f, 0x31, 0x2f, 0x64,
  0x65, 0x6e, 0x73, 0x65, 0x5f, 0x35, 0x2f, 0x42, 0x69, 0x61, 0x73, 0x41,
  0x64, 0x64, 0x00, 0x00, 0x02, 0x00, 0x00, 0x00, 0xff, 0xff, 0xff, 0xff,
  0x08, 0x00, 0x00, 0x00, 0xb0, 0xf7, 0xff, 0xff, 0x00, 0x00, 0x0e, 0x00,
  0x16, 0x00, 0x00, 0x00, 0x08, 0x00, 0x0c, 0x00, 0x07, 0x00, 0x10, 0x00,
  0x0e, 0x00, 0x00, 0x00, 0x00, 0x00, 0x00, 0x08, 0x24, 0x00, 0x00, 0x00,
  0x18, 0x00, 0x00, 0x00, 0x0c, 0x00, 0x00, 0x00, 0x00, 0x00, 0x06, 0x00,
  0x08, 0x00, 0x07, 0x00, 0x06, 0x00, 0x00, 0x00, 0x00, 0x00, 0x00, 0x01,
  0x01, 0x00, 0x00, 0x00, 0x09, 0x00, 0x00, 0x00, 0x03, 0x00, 0x00, 0x00,
  0x00, 0x00, 0x00, 0x00, 0x05, 0x00, 0x00, 0x00, 0x04, 0x00, 0x00, 0x00,
  0x0c, 0x00, 0x10, 0x00, 0x0b, 0x00, 0x00, 0x00, 0x0c, 0x00, 0x04, 0x00,
  0x0c, 0x00, 0x00, 0x00, 0x09, 0x00, 0x00, 0x00, 0x00, 0x00, 0x00, 0x09,
  0x01, 0x00, 0x00, 0x00, 0x94, 0xf7, 0xff, 0xff, 0x14, 0x00, 0x00, 0x00,
  0x0a, 0x00, 0x00, 0x00, 0x18, 0x00, 0x00, 0x00, 0x78, 0x00, 0x00, 0x00,
  0x68, 0x00, 0x00, 0x00, 0x02, 0x00, 0x00, 0x00, 0x01, 0x00, 0x00, 0x00,
  0x10, 0x00, 0x00, 0x00, 0x52, 0x00, 0x00, 0x00, 0x73, 0x65, 0x71, 0x75,
  0x65, 0x6e, 0x74, 0x69, 0x61, 0x6c, 0x5f, 0x31, 0x2f, 0x64, 0x65, 0x6e,
  0x73, 0x65, 0x5f, 0x34, 0x2f, 0x4d, 0x61, 0x74, 0x4d, 0x75, 0x6c, 0x3b,
  0x73, 0x65, 0x71, 0x75, 0x65, 0x6e, 0x74, 0x69, 0x61, 0x6c, 0x5f, 0x31,
  0x2f, 0x64, 0x65, 0x6e, 0x73, 0x65, 0x5f, 0x34, 0x2f, 0x52, 0x65, 0x6c,
  0x75, 0x3b, 0x73, 0x65, 0x71, 0x75, 0x65, 0x6e, 0x74, 0x69, 0x61, 0x6c,
  0x5f, 0x31, 0x2f, 0x64, 0x65, 0x6e, 0x73, 0x65, 0x5f, 0x34, 0x2f, 0x42,
  0x69, 0x61, 0x73, 0x41, 0x64, 0x64, 0x00, 0x00, 0x02, 0x00, 0x00, 0x00,
  0xff, 0xff, 0xff, 0xff, 0x10, 0x00, 0x00, 0x00, 0xb0, 0xf7, 0xff, 0xff,
  0x9e, 0xf8, 0xff, 0xff, 0x04, 0x00, 0x00, 0x00, 0xc8, 0x00, 0x00, 0x00,
  0x6d, 0x21, 0xfe, 0x3f, 0x82, 0x05, 0x2d, 0xc0, 0x46, 0xff, 0x54, 0x40,
  0x09, 0xe8, 0x1c, 0x40, 0x8b, 0xac, 0xa9, 0x3f, 0x1c, 0xf0, 0x4c, 0x3f,
  0xb0, 0x82, 0xf3, 0x3f, 0x3b, 0xc7, 0x76, 0x40, 0x25, 0x5b, 0x75, 0x3f,
  0xb3, 0xca, 0x49, 0x3b, 0x95, 0xc6, 0x21, 0x40, 0x67, 0x20, 0x68, 0x3e,
  0x33, 0x62, 0x1f, 0x40, 0x17, 0xd2, 0xe7, 0x3f, 0x03, 0x4f, 0x0d, 0x3e,
  0x55, 0xaf, 0x3d, 0x40, 0x2e, 0x67, 0x4d, 0xbf, 0xfd, 0xf0, 0x9a, 0x40,
  0xa5, 0x00, 0x42, 0x3f, 0xe7, 0x24, 0xc4, 0xc0, 0x2c, 0xeb, 0x2f, 0x40,
  0xfb, 0x8f, 0x7e, 0x40, 0x8c, 0x38, 0xdf, 0xbe, 0xad, 0x79, 0x30, 0xbf,
  0x85, 0x0e, 0xdc, 0xbf, 0x8e, 0xb3, 0x73, 0x40, 0x4b, 0x96, 0xf6, 0x3f,
  0x25, 0xb9, 0x29, 0x40, 0x94, 0x83, 0x36, 0xbf, 0x39, 0xc1, 0x06, 0x40,
  0x7e, 0x0c, 0xbf, 0x3f, 0xed, 0x65, 0xf1, 0x3f, 0x65, 0x2f, 0x28, 0x40,
  0x89, 0x37, 0x25, 0x3f, 0xc5, 0xaf, 0x92, 0x40, 0xe8, 0x3c, 0xa3, 0xc0,
  0x8d, 0x7c, 0xcf, 0x3f, 0x07, 0xe8, 0x14, 0xc0, 0x0c, 0x20, 0x5e, 0x40,
  0xd9, 0x34, 0x48, 0xc0, 0xb5, 0x78, 0xb2, 0x3f, 0xeb, 0xef, 0xf2, 0x3f,
  0x10, 0xd2, 0x06, 0xc1, 0x75, 0x1e, 0xf5, 0x3f, 0x82, 0xcf, 0xe3, 0xc0,
  0x15, 0x0e, 0xbc, 0x3f, 0x71, 0xbb, 0x84, 0x3f, 0x56, 0xaf, 0x8d, 0x40,
  0xdf, 0xbd, 0xd1, 0x3e, 0xe4, 0x04, 0x65, 0x40, 0x36, 0xf9, 0xff, 0xff,
  0x10, 0x00, 0x00, 0x00, 0x09, 0x00, 0x00, 0x00, 0x14, 0x00, 0x00, 0x00,
  0x30, 0x00, 0x00, 0x00, 0x02, 0x00, 0x00, 0x00, 0x0a, 0x00, 0x00, 0x00,
  0x05, 0x00, 0x00, 0x00, 0x1b, 0x00, 0x00, 0x00, 0x73, 0x65, 0x71, 0x75,
  0x65, 0x6e, 0x74, 0x69, 0x61, 0x6c, 0x5f, 0x31, 0x2f, 0x64, 0x65, 0x6e,
  0x73, 0x65, 0x5f, 0x37, 0x2f, 0x4d, 0x61, 0x74, 0x4d, 0x75, 0x6c, 0x00,
  0xc8, 0xf8, 0xff, 0xff, 0xb6, 0xf9, 0xff, 0xff, 0x04, 0x00, 0x00, 0x00,
  0xa0, 0x00, 0x00, 0x00, 0x15, 0x61, 0x15, 0x3f, 0xf5, 0xc6, 0x9e, 0xbe,
  0x94, 0x44, 0x8f, 0x40, 0x81, 0x00, 0x7a, 0xbe, 0x95, 0x22, 0x84, 0x3f,
  0xa1, 0x2c, 0x24, 0xc0, 0x2b, 0x07, 0x65, 0x40, 0x64, 0x11, 0x61, 0x40,
  0x03, 0x9d, 0xb2, 0xbe, 0xb2, 0xda, 0x42, 0xc0, 0x2e, 0xe1, 0x85, 0x40,
  0x00, 0x4e, 0x2b, 0x3f, 0xe9, 0x35, 0xa0, 0x3e, 0xb9, 0x63, 0x53, 0xbf,
  0xd5, 0x86, 0x1a, 0x40, 0xa2, 0x75, 0x9c, 0x3e, 0x8b, 0x9d, 0xe1, 0xbf,
  0xed, 0x9c, 0x18, 0xc0, 0x83, 0x8e, 0x58, 0xc0, 0x06, 0x7d, 0x3e, 0x3f,
  0x26, 0x24, 0xff, 0xbf, 0x43, 0x79, 0x54, 0x3f, 0x25, 0xc9, 0xc0, 0xbe,
  0x76, 0x1f, 0xa4, 0x3f, 0x5d, 0xb6, 0x47, 0x40, 0x68, 0x0c, 0x2e, 0xbf,
  0x8a, 0x0b, 0x23, 0xc0, 0xf4, 0x96, 0xb3, 0x3f, 0x28, 0xb2, 0x51, 0xc0,
  0x82, 0x7e, 0x9c, 0x40, 0x80, 0xe3, 0xc0, 0x3f, 0x21, 0x97, 0xbd, 0xbf,
  0xeb, 0x42, 0xe8, 0xbf, 0xa5, 0xb2, 0x37, 0x40, 0x7d, 0x41, 0x60, 0xbf,
  0x2b, 0xbe, 0x77, 0xbe, 0xbc, 0xa5, 0x23, 0x3f, 0xe5, 0x74, 0x19, 0x40,
  0xfb, 0xdb, 0xea, 0x3f, 0x1f, 0x95, 0x91, 0x3e, 0x26, 0xfa, 0xff, 0xff,
  0x10, 0x00, 0x00, 0x00, 0x08, 0x00, 0x00, 0x00, 0x14, 0x00, 0x00, 0x00,
  0x30, 0x00, 0x00, 0x00, 0x02, 0x00, 0x00, 0x00, 0x05, 0x00, 0x00, 0x00,
  0x08, 0x00, 0x00, 0x00, 0x1b, 0x00, 0x00, 0x00, 0x73, 0x65, 0x71, 0x75,
  0x65, 0x6e, 0x74, 0x69, 0x61, 0x6c, 0x5f, 0x31, 0x2f, 0x64, 0x65, 0x6e,
  0x73, 0x65, 0x5f, 0x36, 0x2f, 0x4d, 0x61, 0x74, 0x4d, 0x75, 0x6c, 0x00,
  0xb8, 0xf9, 0xff, 0xff, 0xa6, 0xfa, 0xff, 0xff, 0x04, 0x00, 0x00, 0x00,
  0x00, 0x02, 0x00, 0x00, 0xdf, 0x2d, 0x8b, 0x3f, 0x89, 0x46, 0x85, 0x3f,
  0xbc, 0x1d, 0x35, 0xbd, 0xf6, 0x80, 0x88, 0x3f, 0x69, 0xe7, 0x9c, 0xbf,
  0xeb, 0x7e, 0x3a, 0x40, 0x28, 0x68, 0xb2, 0xbc, 0x0b, 0x55, 0x62, 0xbf,
  0xd1, 0x92, 0x18, 0x40, 0x20, 0xde, 0x9b, 0xbf, 0xc6, 0xb4, 0x0d, 0xbf,
  0x23, 0xf3, 0xbb, 0xbe, 0xe4, 0xb3, 0x51, 0xbf, 0x9c, 0xfa, 0xd4, 0xbd,
  0x7c, 0x69, 0x82, 0x3e, 0xbf, 0x41, 0x1f, 0xc0, 0xf3, 0x0b, 0x41, 0x3f,
  0x06, 0xab, 0x6e, 0x3f, 0x99, 0xde, 0x59, 0xbe, 0x59, 0xb6, 0x98, 0xbe,
  0x6a, 0x65, 0x46, 0x3d, 0x22, 0xa0, 0xac, 0x3f, 0x4a, 0xf5, 0x9f, 0xbe,
  0x41, 0xa3, 0xe6, 0x3e, 0x87, 0x2a, 0x3d, 0xbe, 0x9a, 0xa9, 0x54, 0xbf,
  0x97, 0x1e, 0x3f, 0xbe, 0x2d, 0xd7, 0x2b, 0x40, 0xfd, 0x25, 0x79, 0xbf,
  0xc1, 0xea, 0xb0, 0x3d, 0x0e, 0x8a, 0xbf, 0xbd, 0x38, 0x9b, 0x59, 0x3f,
  0xba, 0x51, 0x9d, 0x3e, 0xb2, 0x05, 0x1e, 0xbf, 0xa8, 0x06, 0x35, 0x3f,
  0xf7, 0xc6, 0xb4, 0x3f, 0xbd, 0xaf, 0x44, 0x3f, 0xbf, 0x58, 0x8f, 0x3f,
  0x0f, 0xad, 0x94, 0xbf, 0x87, 0x9e, 0x31, 0x3d, 0xf9, 0x07, 0xb2, 0x3f,
  0x45, 0xb5, 0xb1, 0xbe, 0x94, 0x8e, 0x38, 0x3f, 0xc9, 0x14, 0xb3, 0xc0,
  0x00, 0xbf, 0x81, 0xbd, 0x80, 0x25, 0x6c, 0xc0, 0x10, 0xfc, 0x0b, 0xbf,
  0x84, 0xca, 0x2b, 0xbf, 0x09, 0x0e, 0x4f, 0x3e, 0x1c, 0x1c, 0x36, 0x40,
  0x43, 0xc1, 0xf6, 0x3f, 0x5e, 0xd1, 0x2a, 0x40, 0xaf, 0x7e, 0x93, 0xbe,
  0x6a, 0xce, 0xbb, 0x40, 0xb8, 0x0d, 0x42, 0x3f, 0x2d, 0x97, 0xd6, 0x3f,
  0x7a, 0x10, 0xa6, 0x40, 0xf8, 0x1f, 0x99, 0x3f, 0xd8, 0x6a, 0x8c, 0x3f,
  0xf2, 0x85, 0x14, 0x40, 0x20, 0x3f, 0x26, 0x40, 0xc1, 0xa1, 0x54, 0x40,
  0x6e, 0x63, 0x30, 0x40, 0x2a, 0x7f, 0x59, 0x40, 0xb9, 0xbc, 0x6c, 0x3d,
  0xf0, 0x0c, 0x0e, 0x3f, 0xbf, 0x29, 0x8f, 0x3f, 0x0e, 0x92, 0x3b, 0x3f,
  0x62, 0x03, 0x17, 0x3d, 0xe9, 0x3a, 0xb0, 0x3f, 0x34, 0x61, 0xfa, 0xbe,
  0x3b, 0xc9, 0x17, 0x3f, 0xf4, 0xb3, 0x26, 0x40, 0x00, 0x93, 0xe2, 0x3d,
  0xeb, 0xde, 0x52, 0xbe, 0x1f, 0x74, 0x47, 0x3f, 0x02, 0x6c, 0x87, 0xc0,
  0x8f, 0xfc, 0xa0, 0x3e, 0x3d, 0x9e, 0x86, 0xbe, 0xad, 0xb2, 0xdc, 0xbf,
  0x41, 0x13, 0x3a, 0xbf, 0x31, 0xa5, 0x17, 0xbf, 0xaa, 0x4e, 0x4a, 0x3f,
  0xca, 0x55, 0x98, 0xbe, 0x00, 0x1f, 0xf1, 0x3f, 0x06, 0x52, 0xbc, 0xbe,
  0xce, 0x24, 0x48, 0x3f, 0x6c, 0xf9, 0x13, 0xbe, 0x9a, 0x97, 0x4b, 0xc0,
  0x1a, 0x9a, 0xa4, 0xbe, 0xa9, 0xa9, 0x9e, 0x3f, 0x62, 0x56, 0xe2, 0xbf,
  0x82, 0xee, 0xa2, 0x3f, 0x76, 0x44, 0x11, 0xc0, 0xd3, 0xd5, 0x19, 0xbf,
  0x17, 0x22, 0x8a, 0xbe, 0xbf, 0x90, 0x10, 0x3f, 0x12, 0x01, 0xbe, 0xbd,
  0x0d, 0xfa, 0xf3, 0x3d, 0xf1, 0xf7, 0x9d, 0x3f, 0x95, 0x9d, 0x2e, 0x3e,
  0x51, 0x36, 0x02, 0xc0, 0xd5, 0xcf, 0xf4, 0x3e, 0xe1, 0x8c, 0x4f, 0x3e,
  0x80, 0x08, 0x8a, 0xbf, 0x4b, 0xb9, 0x2a, 0xbe, 0x9d, 0xc2, 0x68, 0x3f,
  0xb0, 0x3c, 0x76, 0xbd, 0x0d, 0x2f, 0xa0, 0x3f, 0x89, 0x3d, 0xa7, 0xbf,
  0x5d, 0xa5, 0x0c, 0x40, 0xce, 0x5f, 0x90, 0x3f, 0xc2, 0x78, 0x7b, 0xbf,
  0x34, 0xe7, 0x8d, 0xbf, 0x79, 0xae, 0x2f, 0xbf, 0x3a, 0x2f, 0x45, 0x3f,
  0x45, 0x70, 0x3f, 0xbf, 0xd5, 0xc6, 0x93, 0x3f, 0x21, 0xed, 0x06, 0x3f,
  0xc8, 0xb0, 0xe4, 0x3f, 0x0a, 0xa7, 0x0d, 0xc0, 0xb1, 0x4e, 0xf9, 0x3e,
  0x5b, 0x5c, 0x40, 0x3f, 0xd9, 0xd3, 0xb1, 0x3c, 0xba, 0x20, 0xc0, 0x3f,
  0xd8, 0xd2, 0x4c, 0x3e, 0xd6, 0x3c, 0x96, 0x3f, 0x90, 0x0a, 0xa0, 0x40,
  0x76, 0xfc, 0xff, 0xff, 0x10, 0x00, 0x00, 0x00, 0x07, 0x00, 0x00, 0x00,
  0x14, 0x00, 0x00, 0x00, 0x30, 0x00, 0x00, 0x00, 0x02, 0x00, 0x00, 0x00,
  0x08, 0x00, 0x00, 0x00, 0x10, 0x00, 0x00, 0x00, 0x1b, 0x00, 0x00, 0x00,
  0x73, 0x65, 0x71, 0x75, 0x65, 0x6e, 0x74, 0x69, 0x61, 0x6c, 0x5f, 0x31,
  0x2f, 0x64, 0x65, 0x6e, 0x73, 0x65, 0x5f, 0x35, 0x2f, 0x4d, 0x61, 0x74,
  0x4d, 0x75, 0x6c, 0x00, 0x08, 0xfc, 0xff, 0xff, 0xf6, 0xfc, 0xff, 0xff,
  0x04, 0x00, 0x00, 0x00, 0x80, 0x01, 0x00, 0x00, 0x54, 0xf4, 0x2e, 0xbe,
  0x0f, 0x65, 0x34, 0xbf, 0x28, 0x08, 0x7b, 0xc0, 0x54, 0x71, 0x1b, 0x40,
  0x19, 0xb0, 0x84, 0xbf, 0x4c, 0x32, 0xb6, 0x3f, 0x2a, 0x4a, 0x30, 0xbf,
  0x0d, 0x56, 0x4e, 0xc0, 0xf3, 0xfa, 0xae, 0x3f, 0x67, 0xaf, 0x39, 0x3f,
  0x8d, 0x22, 0x98, 0x40, 0x1e, 0xf7, 0xaf, 0x40, 0x88, 0x57, 0x0e, 0xbf,
  0xb4, 0xdd, 0xb9, 0xbf, 0x6b, 0x21, 0x1c, 0xc0, 0x50, 0x5b, 0xc9, 0x3f,
  0x54, 0x81, 0x6e, 0x40, 0x8a, 0xdc, 0xf2, 0x40, 0xfe, 0x7c, 0x58, 0x40,
  0x4c, 0x10, 0xb6, 0x3f, 0x63, 0x3c, 0x6f, 0x3f, 0x7d, 0x8f, 0xb0, 0xbe,
  0x55, 0x3f, 0x2e, 0x40, 0xfa, 0x61, 0x28, 0x40, 0xdb, 0x35, 0xf2, 0x3f,
  0xab, 0x3f, 0x85, 0x3f, 0xd9, 0x82, 0x22, 0xbe, 0x97, 0x12, 0x0f, 0x3f,
  0x3f, 0x50, 0x0e, 0x3f, 0xee, 0xa2, 0x84, 0xc0, 0xec, 0x56, 0x8e, 0xbf,
  0xbe, 0xb0, 0xf6, 0x3e, 0x48, 0xc8, 0x11, 0xbf, 0x6c, 0xc9, 0xb5, 0x40,
  0xb9, 0x76, 0xc3, 0x3f, 0x22, 0xf2, 0x37, 0xc0, 0xfb, 0x98, 0x96, 0x3e,
  0x43, 0xb7, 0x06, 0x41, 0xfa, 0x8b, 0xcd, 0xbe, 0x63, 0xa3, 0xe5, 0xbe,
  0x60, 0x48, 0x08, 0xbf, 0x08, 0x0e, 0xa0, 0x40, 0xe8, 0x85, 0x51, 0x3f,
  0x5d, 0x12, 0xa7, 0xbe, 0x82, 0x79, 0x98, 0x3f, 0xb2, 0x01, 0xbd, 0x40,
  0x13, 0x1c, 0x97, 0xbe, 0xba, 0xac, 0x93, 0xc0, 0xe6, 0x1f, 0xb4, 0x3e,
  0xdb, 0xea, 0xf9, 0xbe, 0x88, 0x6f, 0x38, 0x3f, 0x7f, 0x32, 0x29, 0x40,
  0xb4, 0x9c, 0x6f, 0xbe, 0x08, 0xff, 0x01, 0xc1, 0xab, 0xa8, 0x19, 0xc0,
  0x41, 0x9e, 0x3d, 0xc0, 0x90, 0xda, 0x3a, 0xc0, 0xdc, 0x3f, 0x05, 0x3f,
  0xb6, 0x54, 0x0e, 0xc0, 0x23, 0x0e, 0xf9, 0x3f, 0x0c, 0x94, 0xc1, 0x3f,
  0x0d, 0x18, 0x7d, 0x3f, 0xae, 0x83, 0x29, 0xbf, 0xe8, 0x44, 0xb9, 0x3f,
  0x75, 0x51, 0xe5, 0x3f, 0x90, 0xe5, 0xc7, 0xc0, 0x8d, 0xf2, 0x9c, 0xbe,
  0xef, 0x31, 0xfe, 0x3e, 0x05, 0x56, 0x48, 0x3e, 0x36, 0x2c, 0xbf, 0x3f,
  0x97, 0x64, 0x4c, 0xc0, 0x84, 0xa2, 0xaf, 0xbf, 0xc0, 0xd4, 0x92, 0xbf,
  0xcb, 0x9c, 0xfc, 0x3e, 0xb0, 0x1f, 0xab, 0xbf, 0xf5, 0xbf, 0x61, 0x40,
  0xff, 0x9b, 0x1c, 0xbe, 0x8b, 0xd3, 0x39, 0xc0, 0x1b, 0x95, 0xe2, 0x3f,
  0xb4, 0xef, 0x27, 0x40, 0x5b, 0xf8, 0x88, 0x3f, 0xec, 0xe1, 0x70, 0x3f,
  0x73, 0x72, 0x7f, 0x3f, 0xe0, 0x1d, 0xc1, 0xbe, 0x77, 0x71, 0x37, 0xbf,
  0x5a, 0xa8, 0xd3, 0x3e, 0x91, 0x73, 0x7e, 0x3e, 0x37, 0xce, 0x6b, 0x40,
  0xf0, 0x7d, 0xc9, 0xbf, 0xd2, 0x2c, 0x4f, 0xc0, 0x97, 0x07, 0x3f, 0xbf,
  0xd4, 0x01, 0xdd, 0x3d, 0x86, 0x11, 0xd0, 0xbe, 0x0e, 0x54, 0xd6, 0xbf,
  0x99, 0x43, 0x85, 0x40, 0x7f, 0x88, 0xd9, 0xbe, 0x46, 0xfe, 0xff, 0xff,
  0x10, 0x00, 0x00, 0x00, 0x06, 0x00, 0x00, 0x00, 0x14, 0x00, 0x00, 0x00,
  0x30, 0x00, 0x00, 0x00, 0x02, 0x00, 0x00, 0x00, 0x10, 0x00, 0x00, 0x00,
  0x06, 0x00, 0x00, 0x00, 0x1b, 0x00, 0x00, 0x00, 0x73, 0x65, 0x71, 0x75,
  0x65, 0x6e, 0x74, 0x69, 0x61, 0x6c, 0x5f, 0x31, 0x2f, 0x64, 0x65, 0x6e,
  0x73, 0x65, 0x5f, 0x34, 0x2f, 0x4d, 0x61, 0x74, 0x4d, 0x75, 0x6c, 0x00,
  0xd8, 0xfd, 0xff, 0xff, 0xc6, 0xfe, 0xff, 0xff, 0x04, 0x00, 0x00, 0x00,
  0x40, 0x00, 0x00, 0x00, 0x44, 0x1a, 0x27, 0x3f, 0x86, 0xf8, 0xef, 0x3e,
  0x68, 0x02, 0x7a, 0x3f, 0x1b, 0x01, 0x59, 0x3e, 0x92, 0xf6, 0xda, 0x3e,
  0xda, 0xfb, 0x6c, 0x3e, 0x53, 0x6c, 0x8a, 0x3e, 0xec, 0xdd, 0x85, 0x3e,
  0xb2, 0x4e, 0x08, 0x3c, 0x7a, 0x58, 0x99, 0x3f, 0x18, 0xb1, 0x18, 0x3e,
  0x72, 0x2f, 0x33, 0x3e, 0xef, 0x00, 0x95, 0x3e, 0x60, 0x52, 0x0d, 0x3f,
  0x0a, 0xd4, 0xe6, 0x3e, 0x1c, 0x2d, 0x1f, 0x3e, 0xd6, 0xfe, 0xff, 0xff,
  0x10, 0x00, 0x00, 0x00, 0x05, 0x00, 0x00, 0x00, 0x10, 0x00, 0x00, 0x00,
  0x20, 0x00, 0x00, 0x00, 0x01, 0x00, 0x00, 0x00, 0x10, 0x00, 0x00, 0x00,
  0x0c, 0x00, 0x00, 0x00, 0x64, 0x65, 0x6e, 0x73, 0x65, 0x5f, 0x34, 0x2f,
  0x62, 0x69, 0x61, 0x73, 0x00, 0x00, 0x00, 0x00, 0x58, 0xfe, 0xff, 0xff,
  0x46, 0xff, 0xff, 0xff, 0x04, 0x00, 0x00, 0x00, 0x20, 0x00, 0x00, 0x00,
  0x5a, 0x0c, 0x74, 0x3e, 0xff, 0x37, 0x23, 0x3e, 0xc8, 0x7f, 0xf2, 0xbe,
  0x9d, 0x87, 0xb0, 0x3c, 0xc8, 0x78, 0xc2, 0x3e, 0xf1, 0x36, 0xe0, 0x3e,
  0xc7, 0xf1, 0x41, 0xbf, 0x88, 0x09, 0x84, 0x3e, 0x36, 0xff, 0xff, 0xff,
  0x10, 0x00, 0x00, 0x00, 0x04, 0x00, 0x00, 0x00, 0x10, 0x00, 0x00, 0x00,
  0x20, 0x00, 0x00, 0x00, 0x01, 0x00, 0x00, 0x00, 0x08, 0x00, 0x00, 0x00,
  0x0c, 0x00, 0x00, 0x00, 0x64, 0x65, 0x6e, 0x73, 0x65, 0x5f, 0x35, 0x2f,
  0x62, 0x69, 0x61, 0x73, 0x00, 0x00, 0x00, 0x00, 0xb8, 0xfe, 0xff, 0xff,
  0xa6, 0xff, 0xff, 0xff, 0x04, 0x00, 0x00, 0x00, 0x14, 0x00, 0x00, 0x00,
  0x60, 0xce, 0x7c, 0x3f, 0x72, 0x1e, 0xd4, 0xbf, 0x12, 0x53, 0x97, 0xbe,
  0x67, 0x30, 0x18, 0x40, 0xb2, 0xf2, 0xd3, 0x3d, 0x8a, 0xff, 0xff, 0xff,
  0x10, 0x00, 0x00, 0x00, 0x03, 0x00, 0x00, 0x00, 0x10, 0x00, 0x00, 0x00,
  0x24, 0x00, 0x00, 0x00, 0x01, 0x00, 0x00, 0x00, 0x05, 0x00, 0x00, 0x00,
  0x0c, 0x00, 0x00, 0x00, 0x64, 0x65, 0x6e, 0x73, 0x65, 0x5f, 0x36, 0x2f,
  0x62, 0x69, 0x61, 0x73, 0x00, 0x00, 0x00, 0x00, 0x04, 0x00, 0x06, 0x00,
  0x04, 0x00, 0x00, 0x00, 0x00, 0x00, 0x06, 0x00, 0x08, 0x00, 0x04, 0x00,
  0x06, 0x00, 0x00, 0x00, 0x04, 0x00, 0x00, 0x00, 0x28, 0x00, 0x00, 0x00,
  0x43, 0x11, 0x19, 0x41, 0x82, 0x63, 0xb2, 0x3e, 0xf7, 0x09, 0xc6, 0x3c,
  0x9e, 0x60, 0x84, 0x40, 0x63, 0x0e, 0xda, 0x3d, 0xeb, 0xcb, 0x7a, 0x40,
  0x15, 0x21, 0xb2, 0x3f, 0x03, 0xc1, 0x90, 0x3f, 0xd5, 0x1f, 0x92, 0x40,
  0x72, 0x1a, 0x99, 0x40, 0x00, 0x00, 0x0e, 0x00, 0x14, 0x00, 0x04, 0x00,
  0x00, 0x00, 0x08, 0x00, 0x0c, 0x00, 0x10, 0x00, 0x0e, 0x00, 0x00, 0x00,
  0x10, 0x00, 0x00, 0x00, 0x02, 0x00, 0x00, 0x00, 0x10, 0x00, 0x00, 0x00,
  0x20, 0x00, 0x00, 0x00, 0x01, 0x00, 0x00, 0x00, 0x0a, 0x00, 0x00, 0x00,
  0x0c, 0x00, 0x00, 0x00, 0x64, 0x65, 0x6e, 0x73, 0x65, 0x5f, 0x37, 0x2f,
  0x62, 0x69, 0x61, 0x73, 0x00, 0x00, 0x00, 0x00, 0x90, 0xff, 0xff, 0xff,
  0x14, 0x00, 0x18, 0x00, 0x04, 0x00, 0x00, 0x00, 0x08, 0x00, 0x0c, 0x00,
  0x10, 0x00, 0x00, 0x00, 0x00, 0x00, 0x14, 0x00, 0x14, 0x00, 0x00, 0x00,
  0x14, 0x00, 0x00, 0x00, 0x01, 0x00, 0x00, 0x00, 0x18, 0x00, 0x00, 0x00,
  0x44, 0x00, 0x00, 0x00, 0x34, 0x00, 0x00, 0x00, 0x02, 0x00, 0x00, 0x00,
  0x01, 0x00, 0x00, 0x00, 0x06, 0x00, 0x00, 0x00, 0x1f, 0x00, 0x00, 0x00,
  0x73, 0x65, 0x72, 0x76, 0x69, 0x6e, 0x67, 0x5f, 0x64, 0x65, 0x66, 0x61,
  0x75, 0x6c, 0x74, 0x5f, 0x64, 0x65, 0x6e, 0x73, 0x65, 0x5f, 0x34, 0x5f,
  0x69, 0x6e, 0x70, 0x75, 0x74, 0x3a, 0x30, 0x00, 0x02, 0x00, 0x00, 0x00,
  0xff, 0xff, 0xff, 0xff, 0x06, 0x00, 0x00, 0x00, 0xfc, 0xff, 0xff, 0xff,
  0x04, 0x00, 0x04, 0x00, 0x04, 0x00, 0x00, 0x00
};
